unsigned char converted_model_tflite[] = {
  0x08, 0x00, 0x00, 0x00, 0x54, 0x46, 0x4c, 0x33, 0x2a, 0xfd, 0xff, 0xff,
  0x03, 0x00, 0x00, 0x00, 0x50, 0x07, 0x00, 0x00, 0xc0, 0x02, 0x00, 0x00,
  0xa8, 0x02, 0x00, 0x00, 0x04, 0x00, 0x00, 0x00, 0x0c, 0x00, 0x00, 0x00,
  0x98, 0x02, 0x00, 0x00, 0x90, 0x02, 0x00, 0x00, 0x60, 0x02, 0x00, 0x00,
  0x30, 0x02, 0x00, 0x00, 0x14, 0x02, 0x00, 0x00, 0xa4, 0x01, 0x00, 0x00,
  0x94, 0x00, 0x00, 0x00, 0x24, 0x00, 0x00, 0x00, 0x1c, 0x00, 0x00, 0x00,
  0x14, 0x00, 0x00, 0x00, 0x0c, 0x00, 0x00, 0x00, 0x04, 0x00, 0x00, 0x00,
  0x18, 0xf9, 0xff, 0xff, 0x1c, 0xf9, 0xff, 0xff, 0x20, 0xf9, 0xff, 0xff,
  0x24, 0xf9, 0xff, 0xff, 0x16, 0xfd, 0xff, 0xff, 0x04, 0x00, 0x00, 0x00,
  0x60, 0x00, 0x00, 0x00, 0xa1, 0xcf, 0x34, 0x3f, 0xb2, 0xeb, 0x24, 0xc0,
  0xdf, 0x85, 0xaa, 0xbf, 0xaa, 0x65, 0x87, 0x3e, 0x7f, 0x04, 0x37, 0xbf,
  0x28, 0xb8, 0xd6, 0x3d, 0x9b, 0x55, 0xb9, 0xbe, 0xb4, 0x78, 0x03, 0xbe,
  0xaf, 0x2d, 0xab, 0xbe, 0xf3, 0xc9, 0x3c, 0xc0, 0x2e, 0xbe, 0x20, 0x3f,
  0xc0, 0xfe, 0x59, 0x3e, 0xfb, 0x61, 0xee, 0xbe, 0xa5, 0xdc, 0x21, 0xbf,
  0xb2, 0xa7, 0xf8, 0x3e, 0x88, 0x32, 0x2f, 0xc0, 0xd8, 0xbc, 0x12, 0x3f,
  0x13, 0x56, 0x57, 0x40, 0x2c, 0xd9, 0x06, 0xbf, 0xcc, 0x41, 0x33, 0xbf,
  0x80, 0xf2, 0x2f, 0x3f, 0x93, 0xfb, 0x18, 0x3f, 0xe0, 0x50, 0xb7, 0x3c,
  0xcd, 0x3a, 0x3f, 0x40, 0x82, 0xfd, 0xff, 0xff, 0x04, 0x00, 0x00, 0x00,
  0x00, 0x01, 0x00, 0x00, 0xba, 0x43, 0x55, 0xbe, 0xde, 0xf8, 0x73, 0x3e,
  0x78, 0x10, 0xb4, 0x3e, 0xbd, 0x74, 0xae, 0x3d, 0x30, 0x9b, 0x86, 0xbd,
  0x8d, 0xe1, 0x0d, 0xbf, 0x1f, 0x99, 0x09, 0x3e, 0x9b, 0x11, 0xa9, 0xbe,
  0x3b, 0xcb, 0x82, 0xbf, 0x32, 0x41, 0x25, 0x3f, 0x5a, 0xad, 0x02, 0xbf,
  0x48, 0x03, 0x95, 0x3e, 0x40, 0x88, 0x2d, 0xbe, 0xe0, 0xe9, 0x9b, 0x3e,
  0x1b, 0xb7, 0x13, 0xbf, 0x52, 0x80, 0x29, 0x40, 0x18, 0x8d, 0xdc, 0x3f,
  0x61, 0xbc, 0x32, 0x3e, 0xa8, 0x2c, 0x0d, 0xbe, 0x90, 0x7d, 0x41, 0x3f,
  0x38, 0x1e, 0xb7, 0x3e, 0xbe, 0x14, 0x66, 0x3f, 0x68, 0x1e, 0x7b, 0x3f,
  0x49, 0x1a, 0x13, 0xc0, 0xda, 0xce, 0xc8, 0xbe, 0x70, 0x98, 0xac, 0x3d,
  0xfc, 0xbd, 0xa9, 0x3e, 0xc4, 0xd7, 0xe1, 0xbe, 0x72, 0x02, 0x25, 0xbe,
  0xc3, 0x8c, 0xfd, 0xbe, 0xde, 0x41, 0xf0, 0xbe, 0x76, 0x05, 0xdd, 0x3e,
  0xf2, 0x63, 0xb3, 0xbf, 0xa2, 0xe1, 0xef, 0x3e, 0xc4, 0xf1, 0x2d, 0x3e,
  0x26, 0xf4, 0x09, 0x3f, 0xe0, 0x69, 0x64, 0x3e, 0xf7, 0x7e, 0x25, 0x3f,
  0x5d, 0x35, 0x16, 0xbe, 0xf6, 0x74, 0xe6, 0x3f, 0x3a, 0x2c, 0x3e, 0xbe,
  0x04, 0x7e, 0xc4, 0x3e, 0x90, 0x58, 0xc3, 0x3d, 0x2e, 0xf2, 0xd6, 0xbe,
  0x7a, 0x32, 0xe2, 0xbe, 0xf6, 0x3b, 0x04, 0xbf, 0xfc, 0x52, 0x0e, 0xbf,
  0xb0, 0x76, 0xb4, 0x3d, 0xa6, 0xda, 0xf5, 0xbe, 0x04, 0xbb, 0xeb, 0xbd,
  0xe0, 0x56, 0xa2, 0x3d, 0x70, 0xbd, 0x46, 0xbe, 0x40, 0x2f, 0x89, 0xbd,
  0x1f, 0x97, 0x11, 0xbf, 0xb4, 0x00, 0x42, 0x3e, 0x1a, 0x49, 0xc2, 0x3e,
  0x59, 0x42, 0x15, 0xc0, 0x93, 0x66, 0xa7, 0x3e, 0x56, 0x94, 0xbd, 0xbe,
  0x06, 0xbf, 0x2f, 0x3f, 0x70, 0xf9, 0x1b, 0x3e, 0xe9, 0xb3, 0x08, 0x3f,
  0xd6, 0x7d, 0x09, 0xbf, 0x95, 0x17, 0x2c, 0x40, 0x8e, 0xfe, 0xff, 0xff,
  0x04, 0x00, 0x00, 0x00, 0x60, 0x00, 0x00, 0x00, 0x3b, 0x45, 0xa7, 0x3f,
  0x5a, 0x97, 0xc1, 0x3e, 0x01, 0xb8, 0xa7, 0xbf, 0x8f, 0x4d, 0x84, 0xbe,
  0x49, 0x4c, 0x84, 0x3f, 0x2b, 0xd3, 0xfa, 0x3e, 0xdc, 0x81, 0x33, 0xbe,
  0x75, 0x86, 0x38, 0xbf, 0x80, 0x3a, 0x54, 0xbc, 0x86, 0x2e, 0x57, 0xbf,
  0x8a, 0x88, 0xa8, 0x3f, 0x1f, 0xd0, 0x8d, 0x3f, 0x41, 0x24, 0x1d, 0xbf,
  0xed, 0x02, 0xcc, 0xbe, 0xac, 0x9c, 0x2a, 0xbe, 0xe1, 0xb3, 0x72, 0x3e,
  0x49, 0xbe, 0x4b, 0x3f, 0xcf, 0x4c, 0x60, 0x3f, 0xba, 0x09, 0xe7, 0x3f,
  0xb3, 0x9b, 0x68, 0x3f, 0xbe, 0x28, 0x3c, 0xbf, 0xd8, 0xe9, 0xb1, 0xbf,
  0x48, 0x33, 0x0e, 0xbe, 0x2e, 0x39, 0xae, 0x3f, 0xfa, 0xfe, 0xff, 0xff,
  0x04, 0x00, 0x00, 0x00, 0x0c, 0x00, 0x00, 0x00, 0xf0, 0x7c, 0x6b, 0xbe,
  0x3d, 0x88, 0x54, 0x3e, 0x69, 0xfc, 0xed, 0xbd, 0x12, 0xff, 0xff, 0xff,
  0x04, 0x00, 0x00, 0x00, 0x20, 0x00, 0x00, 0x00, 0xce, 0xef, 0xd6, 0xba,
  0x83, 0xcf, 0x55, 0xbd, 0xf6, 0x44, 0x44, 0x3f, 0x00, 0x00, 0x00, 0x00,
  0x3a, 0xbf, 0xd9, 0xbd, 0x00, 0x00, 0x00, 0x00, 0x00, 0x00, 0x00, 0x00,
  0x33, 0xc1, 0xcb, 0x3d, 0x3e, 0xff, 0xff, 0xff, 0x04, 0x00, 0x00, 0x00,
  0x20, 0x00, 0x00, 0x00, 0x89, 0x32, 0xcb, 0x3e, 0x9a, 0xa3, 0x25, 0x3b,
  0x00, 0x00, 0x00, 0x00, 0x6a, 0xa1, 0x48, 0x3e, 0x00, 0x00, 0x00, 0x00,
  0x10, 0x8e, 0xdb, 0x3d, 0x99, 0x12, 0x10, 0x3f, 0x66, 0xce, 0x87, 0x3d,
  0x7c, 0xfb, 0xff, 0xff, 0x80, 0xfb, 0xff, 0xff, 0x0f, 0x00, 0x00, 0x00,
  0x4d, 0x4c, 0x49, 0x52, 0x20, 0x43, 0x6f, 0x6e, 0x76, 0x65, 0x72, 0x74,
  0x65, 0x64, 0x2e, 0x00, 0x01, 0x00, 0x00, 0x00, 0x14, 0x00, 0x00, 0x00,
  0x00, 0x00, 0x0e, 0x00, 0x18, 0x00, 0x04, 0x00, 0x08, 0x00, 0x0c, 0x00,
  0x10, 0x00, 0x14, 0x00, 0x0e, 0x00, 0x00, 0x00, 0x4c, 0x01, 0x00, 0x00,
  0x40, 0x01, 0x00, 0x00, 0x34, 0x01, 0x00, 0x00, 0x14, 0x00, 0x00, 0x00,
  0x04, 0x00, 0x00, 0x00, 0x04, 0x00, 0x00, 0x00, 0x6d, 0x61, 0x69, 0x6e,
  0x00, 0x00, 0x00, 0x00, 0x04, 0x00, 0x00, 0x00, 0xdc, 0x00, 0x00, 0x00,
  0x94, 0x00, 0x00, 0x00, 0x50, 0x00, 0x00, 0x00, 0x14, 0x00, 0x00, 0x00,
  0x00, 0x00, 0x0e, 0x00, 0x1a, 0x00, 0x08, 0x00, 0x0c, 0x00, 0x10, 0x00,
  0x07, 0x00, 0x14, 0x00, 0x0e, 0x00, 0x00, 0x00, 0x00, 0x00, 0x00, 0x09,
  0x01, 0x00, 0x00, 0x00, 0x24, 0x00, 0x00, 0x00, 0x18, 0x00, 0x00, 0x00,
  0x0c, 0x00, 0x00, 0x00, 0x00, 0x00, 0x06, 0x00, 0x08, 0x00, 0x04, 0x00,
  0x06, 0x00, 0x00, 0x00, 0x00, 0x00, 0x80, 0x3f, 0x01, 0x00, 0x00, 0x00,
  0x0a, 0x00, 0x00, 0x00, 0x01, 0x00, 0x00, 0x00, 0x09, 0x00, 0x00, 0x00,
  0xce, 0xff, 0xff, 0xff, 0x00, 0x00, 0x00, 0x08, 0x18, 0x00, 0x00, 0x00,
  0x0c, 0x00, 0x00, 0x00, 0x04, 0x00, 0x00, 0x00, 0x44, 0xfc, 0xff, 0xff,
  0x01, 0x00, 0x00, 0x00, 0x09, 0x00, 0x00, 0x00, 0x03, 0x00, 0x00, 0x00,
  0x08, 0x00, 0x00, 0x00, 0x06, 0x00, 0x00, 0x00, 0x03, 0x00, 0x00, 0x00,
  0x00, 0x00, 0x0e, 0x00, 0x14, 0x00, 0x00, 0x00, 0x08, 0x00, 0x0c, 0x00,
  0x07, 0x00, 0x10, 0x00, 0x0e, 0x00, 0x00, 0x00, 0x00, 0x00, 0x00, 0x08,
  0x1c, 0x00, 0x00, 0x00, 0x10, 0x00, 0x00, 0x00, 0x04, 0x00, 0x00, 0x00,
  0xba, 0xff, 0xff, 0xff, 0x00, 0x00, 0x00, 0x01, 0x01, 0x00, 0x00, 0x00,
  0x08, 0x00, 0x00, 0x00, 0x03, 0x00, 0x00, 0x00, 0x07, 0x00, 0x00, 0x00,
  0x05, 0x00, 0x00, 0x00, 0x02, 0x00, 0x00, 0x00, 0x00, 0x00, 0x0e, 0x00,
  0x16, 0x00, 0x00, 0x00, 0x08, 0x00, 0x0c, 0x00, 0x07, 0x00, 0x10, 0x00,
  0x0e, 0x00, 0x00, 0x00, 0x00, 0x00, 0x00, 0x08, 0x24, 0x00, 0x00, 0x00,
  0x18, 0x00, 0x00, 0x00, 0x0c, 0x00, 0x00, 0x00, 0x00, 0x00, 0x06, 0x00,
  0x08, 0x00, 0x07, 0x00, 0x06, 0x00, 0x00, 0x00, 0x00, 0x00, 0x00, 0x01,
  0x01, 0x00, 0x00, 0x00, 0x07, 0x00, 0x00, 0x00, 0x03, 0x00, 0x00, 0x00,
  0x00, 0x00, 0x00, 0x00, 0x04, 0x00, 0x00, 0x00, 0x01, 0x00, 0x00, 0x00,
  0x01, 0x00, 0x00, 0x00, 0x0a, 0x00, 0x00, 0x00, 0x01, 0x00, 0x00, 0x00,
  0x00, 0x00, 0x00, 0x00, 0x0b, 0x00, 0x00, 0x00, 0xe8, 0x02, 0x00, 0x00,
  0x88, 0x02, 0x00, 0x00, 0x34, 0x02, 0x00, 0x00, 0xe0, 0x01, 0x00, 0x00,
  0x9c, 0x01, 0x00, 0x00, 0x54, 0x01, 0x00, 0x00, 0x0c, 0x01, 0x00, 0x00,
  0xc8, 0x00, 0x00, 0x00, 0x84, 0x00, 0x00, 0x00, 0x3c, 0x00, 0x00, 0x00,
  0x04, 0x00, 0x00, 0x00, 0x52, 0xfd, 0xff, 0xff, 0x24, 0x00, 0x00, 0x00,
  0x0b, 0x00, 0x00, 0x00, 0x0c, 0x00, 0x00, 0x00, 0x04, 0x00, 0x00, 0x00,
  0x44, 0xfd, 0xff, 0xff, 0x08, 0x00, 0x00, 0x00, 0x49, 0x64, 0x65, 0x6e,
  0x74, 0x69, 0x74, 0x79, 0x00, 0x00, 0x00, 0x00, 0x02, 0x00, 0x00, 0x00,
  0x01, 0x00, 0x00, 0x00, 0x03, 0x00, 0x00, 0x00, 0x86, 0xfd, 0xff, 0xff,
  0x34, 0x00, 0x00, 0x00, 0x0a, 0x00, 0x00, 0x00, 0x0c, 0x00, 0x00, 0x00,
  0x04, 0x00, 0x00, 0x00, 0x78, 0xfd, 0xff, 0xff, 0x1a, 0x00, 0x00, 0x00,
  0x73, 0x65, 0x71, 0x75, 0x65, 0x6e, 0x74, 0x69, 0x61, 0x6c, 0x2f, 0x64,
  0x65, 0x6e, 0x73, 0x65, 0x5f, 0x32, 0x2f, 0x42, 0x69, 0x61, 0x73, 0x41,
  0x64, 0x64, 0x00, 0x00, 0x02, 0x00, 0x00, 0x00, 0x01, 0x00, 0x00, 0x00,
  0x03, 0x00, 0x00, 0x00, 0xca, 0xfd, 0xff, 0xff, 0x30, 0x00, 0x00, 0x00,
  0x09, 0x00, 0x00, 0x00, 0x0c, 0x00, 0x00, 0x00, 0x04, 0x00, 0x00, 0x00,
  0xbc, 0xfd, 0xff, 0xff, 0x17, 0x00, 0x00, 0x00, 0x73, 0x65, 0x71, 0x75,
  0x65, 0x6e, 0x74, 0x69, 0x61, 0x6c, 0x2f, 0x64, 0x65, 0x6e, 0x73, 0x65,
  0x5f, 0x31, 0x2f, 0x52, 0x65, 0x6c, 0x75, 0x00, 0x02, 0x00, 0x00, 0x00,
  0x01, 0x00, 0x00, 0x00, 0x08, 0x00, 0x00, 0x00, 0x0a, 0xfe, 0xff, 0xff,
  0x30, 0x00, 0x00, 0x00, 0x08, 0x00, 0x00, 0x00, 0x0c, 0x00, 0x00, 0x00,
  0x04, 0x00, 0x00, 0x00, 0xfc, 0xfd, 0xff, 0xff, 0x15, 0x00, 0x00, 0x00,
  0x73, 0x65, 0x71, 0x75, 0x65, 0x6e, 0x74, 0x69, 0x61, 0x6c, 0x2f, 0x64,
  0x65, 0x6e, 0x73, 0x65, 0x2f, 0x52, 0x65, 0x6c, 0x75, 0x00, 0x00, 0x00,
  0x02, 0x00, 0x00, 0x00, 0x01, 0x00, 0x00, 0x00, 0x08, 0x00, 0x00, 0x00,
  0x4a, 0xfe, 0xff, 0xff, 0x34, 0x00, 0x00, 0x00, 0x07, 0x00, 0x00, 0x00,
  0x0c, 0x00, 0x00, 0x00, 0x04, 0x00, 0x00, 0x00, 0x3c, 0xfe, 0xff, 0xff,
  0x19, 0x00, 0x00, 0x00, 0x73, 0x65, 0x71, 0x75, 0x65, 0x6e, 0x74, 0x69,
  0x61, 0x6c, 0x2f, 0x64, 0x65, 0x6e, 0x73, 0x65, 0x5f, 0x32, 0x2f, 0x4d,
  0x61, 0x74, 0x4d, 0x75, 0x6c, 0x00, 0x00, 0x00, 0x02, 0x00, 0x00, 0x00,
  0x03, 0x00, 0x00, 0x00, 0x08, 0x00, 0x00, 0x00, 0x8e, 0xfe, 0xff, 0xff,
  0x34, 0x00, 0x00, 0x00, 0x06, 0x00, 0x00, 0x00, 0x0c, 0x00, 0x00, 0x00,
  0x04, 0x00, 0x00, 0x00, 0x80, 0xfe, 0xff, 0xff, 0x19, 0x00, 0x00, 0x00,
  0x73, 0x65, 0x71, 0x75, 0x65, 0x6e, 0x74, 0x69, 0x61, 0x6c, 0x2f, 0x64,
  0x65, 0x6e, 0x73, 0x65, 0x5f, 0x31, 0x2f, 0x4d, 0x61, 0x74, 0x4d, 0x75,
  0x6c, 0x00, 0x00, 0x00, 0x02, 0x00, 0x00, 0x00, 0x08, 0x00, 0x00, 0x00,
  0x08, 0x00, 0x00, 0x00, 0xd2, 0xfe, 0xff, 0xff, 0x30, 0x00, 0x00, 0x00,
  0x05, 0x00, 0x00, 0x00, 0x0c, 0x00, 0x00, 0x00, 0x04, 0x00, 0x00, 0x00,
  0xc4, 0xfe, 0xff, 0xff, 0x17, 0x00, 0x00, 0x00, 0x73, 0x65, 0x71, 0x75,
  0x65, 0x6e, 0x74, 0x69, 0x61, 0x6c, 0x2f, 0x64, 0x65, 0x6e, 0x73, 0x65,
  0x2f, 0x4d, 0x61, 0x74, 0x4d, 0x75, 0x6c, 0x00, 0x02, 0x00, 0x00, 0x00,
  0x08, 0x00, 0x00, 0x00, 0x03, 0x00, 0x00, 0x00, 0x12, 0xff, 0xff, 0xff,
  0x44, 0x00, 0x00, 0x00, 0x04, 0x00, 0x00, 0x00, 0x0c, 0x00, 0x00, 0x00,
  0x04, 0x00, 0x00, 0x00, 0x04, 0xff, 0xff, 0xff, 0x29, 0x00, 0x00, 0x00,
  0x73, 0x65, 0x71, 0x75, 0x65, 0x6e, 0x74, 0x69, 0x61, 0x6c, 0x2f, 0x64,
  0x65, 0x6e, 0x73, 0x65, 0x5f, 0x32, 0x2f, 0x42, 0x69, 0x61, 0x73, 0x41,
  0x64, 0x64, 0x2f, 0x52, 0x65, 0x61, 0x64, 0x56, 0x61, 0x72, 0x69, 0x61,
  0x62, 0x6c, 0x65, 0x4f, 0x70, 0x00, 0x00, 0x00, 0x01, 0x00, 0x00, 0x00,
  0x03, 0x00, 0x00, 0x00, 0x62, 0xff, 0xff, 0xff, 0x44, 0x00, 0x00, 0x00,
  0x03, 0x00, 0x00, 0x00, 0x0c, 0x00, 0x00, 0x00, 0x04, 0x00, 0x00, 0x00,
  0x54, 0xff, 0xff, 0xff, 0x29, 0x00, 0x00, 0x00, 0x73, 0x65, 0x71, 0x75,
  0x65, 0x6e, 0x74, 0x69, 0x61, 0x6c, 0x2f, 0x64, 0x65, 0x6e, 0x73, 0x65,
  0x5f, 0x31, 0x2f, 0x42, 0x69, 0x61, 0x73, 0x41, 0x64, 0x64, 0x2f, 0x52,
  0x65, 0x61, 0x64, 0x56, 0x61, 0x72, 0x69, 0x61, 0x62, 0x6c, 0x65, 0x4f,
  0x70, 0x00, 0x00, 0x00, 0x01, 0x00, 0x00, 0x00, 0x08, 0x00, 0x00, 0x00,
  0xb2, 0xff, 0xff, 0xff, 0x40, 0x00, 0x00, 0x00, 0x02, 0x00, 0x00, 0x00,
  0x0c, 0x00, 0x00, 0x00, 0x04, 0x00, 0x00, 0x00, 0xa4, 0xff, 0xff, 0xff,
  0x27, 0x00, 0x00, 0x00, 0x73, 0x65, 0x71, 0x75, 0x65, 0x6e, 0x74, 0x69,
  0x61, 0x6c, 0x2f, 0x64, 0x65, 0x6e, 0x73, 0x65, 0x2f, 0x42, 0x69, 0x61,
  0x73, 0x41, 0x64, 0x64, 0x2f, 0x52, 0x65, 0x61, 0x64, 0x56, 0x61, 0x72,
  0x69, 0x61, 0x62, 0x6c, 0x65, 0x4f, 0x70, 0x00, 0x01, 0x00, 0x00, 0x00,
  0x08, 0x00, 0x00, 0x00, 0x00, 0x00, 0x0e, 0x00, 0x14, 0x00, 0x04, 0x00,
  0x00, 0x00, 0x08, 0x00, 0x0c, 0x00, 0x10, 0x00, 0x0e, 0x00, 0x00, 0x00,
  0x28, 0x00, 0x00, 0x00, 0x01, 0x00, 0x00, 0x00, 0x10, 0x00, 0x00, 0x00,
  0x08, 0x00, 0x00, 0x00, 0x04, 0x00, 0x04, 0x00, 0x04, 0x00, 0x00, 0x00,
  0x0b, 0x00, 0x00, 0x00, 0x64, 0x65, 0x6e, 0x73, 0x65, 0x5f, 0x69, 0x6e,
  0x70, 0x75, 0x74, 0x00, 0x02, 0x00, 0x00, 0x00, 0x01, 0x00, 0x00, 0x00,
  0x03, 0x00, 0x00, 0x00, 0x02, 0x00, 0x00, 0x00, 0x20, 0x00, 0x00, 0x00,
  0x0c, 0x00, 0x00, 0x00, 0x00, 0x00, 0x06, 0x00, 0x06, 0x00, 0x05, 0x00,
  0x06, 0x00, 0x00, 0x00, 0x00, 0x19, 0x0a, 0x00, 0x0c, 0x00, 0x07, 0x00,
  0x00, 0x00, 0x08, 0x00, 0x0a, 0x00, 0x00, 0x00, 0x00, 0x00, 0x00, 0x09,
  0x03, 0x00, 0x00, 0x00
};
unsigned int converted_model_tflite_len = 1936;
